const unsigned char model_tflite[] = {
  0x1c, 0x00, 0x00, 0x00, 0x54, 0x46, 0x4c, 0x33, 0x14, 0x00, 0x20, 0x00,
  0x1c, 0x00, 0x18, 0x00, 0x14, 0x00, 0x10, 0x00, 0x0c, 0x00, 0x00, 0x00,
  0x08, 0x00, 0x04, 0x00, 0x14, 0x00, 0x00, 0x00, 0x1c, 0x00, 0x00, 0x00,
  0x98, 0x00, 0x00, 0x00, 0xf0, 0x00, 0x00, 0x00, 0x64, 0x08, 0x00, 0x00,
  0x74, 0x08, 0x00, 0x00, 0x28, 0x0e, 0x00, 0x00, 0x03, 0x00, 0x00, 0x00,
  0x01, 0x00, 0x00, 0x00, 0x10, 0x00, 0x00, 0x00, 0x00, 0x00, 0x0a, 0x00,
  0x10, 0x00, 0x0c, 0x00, 0x08, 0x00, 0x04, 0x00, 0x0a, 0x00, 0x00, 0x00,
  0x0c, 0x00, 0x00, 0x00, 0x1c, 0x00, 0x00, 0x00, 0x3c, 0x00, 0x00, 0x00,
  0x0f, 0x00, 0x00, 0x00, 0x73, 0x65, 0x72, 0x76, 0x69, 0x6e, 0x67, 0x5f,
  0x64, 0x65, 0x66, 0x61, 0x75, 0x6c, 0x74, 0x00, 0x01, 0x00, 0x00, 0x00,
  0x04, 0x00, 0x00, 0x00, 0x90, 0xff, 0xff, 0xff, 0x0a, 0x00, 0x00, 0x00,
  0x04, 0x00, 0x00, 0x00, 0x08, 0x00, 0x00, 0x00, 0x6f, 0x75, 0x74, 0x70,
  0x75, 0x74, 0x5f, 0x30, 0x00, 0x00, 0x00, 0x00, 0x01, 0x00, 0x00, 0x00,
  0x04, 0x00, 0x00, 0x00, 0x82, 0xf7, 0xff, 0xff, 0x04, 0x00, 0x00, 0x00,
  0x0c, 0x00, 0x00, 0x00, 0x6b, 0x65, 0x72, 0x61, 0x73, 0x5f, 0x74, 0x65,
  0x6e, 0x73, 0x6f, 0x72, 0x00, 0x00, 0x00, 0x00, 0x02, 0x00, 0x00, 0x00,
  0x34, 0x00, 0x00, 0x00, 0x04, 0x00, 0x00, 0x00, 0xdc, 0xff, 0xff, 0xff,
  0x0d, 0x00, 0x00, 0x00, 0x04, 0x00, 0x00, 0x00, 0x13, 0x00, 0x00, 0x00,
  0x43, 0x4f, 0x4e, 0x56, 0x45, 0x52, 0x53, 0x49, 0x4f, 0x4e, 0x5f, 0x4d,
  0x45, 0x54, 0x41, 0x44, 0x41, 0x54, 0x41, 0x00, 0x08, 0x00, 0x0c, 0x00,
  0x08, 0x00, 0x04, 0x00, 0x08, 0x00, 0x00, 0x00, 0x0c, 0x00, 0x00, 0x00,
  0x04, 0x00, 0x00, 0x00, 0x13, 0x00, 0x00, 0x00, 0x6d, 0x69, 0x6e, 0x5f,
  0x72, 0x75, 0x6e, 0x74, 0x69, 0x6d, 0x65, 0x5f, 0x76, 0x65, 0x72, 0x73,
  0x69, 0x6f, 0x6e, 0x00, 0x0e, 0x00, 0x00, 0x00, 0x70, 0x07, 0x00, 0x00,
  0x68, 0x07, 0x00, 0x00, 0x18, 0x06, 0x00, 0x00, 0x08, 0x02, 0x00, 0x00,
  0xe4, 0x01, 0x00, 0x00, 0x94, 0x01, 0x00, 0x00, 0x44, 0x01, 0x00, 0x00,
  0xb4, 0x00, 0x00, 0x00, 0xac, 0x00, 0x00, 0x00, 0xa4, 0x00, 0x00, 0x00,
  0x9c, 0x00, 0x00, 0x00, 0x94, 0x00, 0x00, 0x00, 0x74, 0x00, 0x00, 0x00,
  0x04, 0x00, 0x00, 0x00, 0x36, 0xf8, 0xff, 0xff, 0x04, 0x00, 0x00, 0x00,
  0x60, 0x00, 0x00, 0x00, 0x10, 0x00, 0x00, 0x00, 0x00, 0x00, 0x00, 0x00,
  0x08, 0x00, 0x0e, 0x00, 0x08, 0x00, 0x04, 0x00, 0x08, 0x00, 0x00, 0x00,
  0x10, 0x00, 0x00, 0x00, 0x24, 0x00, 0x00, 0x00, 0x00, 0x00, 0x06, 0x00,
  0x08, 0x00, 0x04, 0x00, 0x06, 0x00, 0x00, 0x00, 0x04, 0x00, 0x00, 0x00,
  0x00, 0x00, 0x00, 0x00, 0x0c, 0x00, 0x18, 0x00, 0x14, 0x00, 0x10, 0x00,
  0x0c, 0x00, 0x04, 0x00, 0x0c, 0x00, 0x00, 0x00, 0x24, 0x72, 0x73, 0x96,
  0x4b, 0x51, 0x56, 0xd1, 0x02, 0x00, 0x00, 0x00, 0x02, 0x00, 0x00, 0x00,
  0x04, 0x00, 0x00, 0x00, 0x06, 0x00, 0x00, 0x00, 0x32, 0x2e, 0x31, 0x39,
  0x2e, 0x30, 0x00, 0x00, 0xa2, 0xf8, 0xff, 0xff, 0x04, 0x00, 0x00, 0x00,
  0x10, 0x00, 0x00, 0x00, 0x31, 0x2e, 0x35, 0x2e, 0x30, 0x00, 0x00, 0x00,
  0x00, 0x00, 0x00, 0x00, 0x00, 0x00, 0x00, 0x00, 0xb8, 0xf3, 0xff, 0xff,
  0xbc, 0xf3, 0xff, 0xff, 0xc0, 0xf3, 0xff, 0xff, 0xc4, 0xf3, 0xff, 0xff,
  0xce, 0xf8, 0xff, 0xff, 0x04, 0x00, 0x00, 0x00, 0x80, 0x00, 0x00, 0x00,
  0xa5, 0x7e, 0x95, 0x3f, 0xb8, 0x19, 0x21, 0x3e, 0xd6, 0x7d, 0x94, 0x3f,
  0xd8, 0x4f, 0x7f, 0x3d, 0xeb, 0xaa, 0x62, 0xbf, 0x01, 0x1c, 0x19, 0x3c,
  0xc7, 0x63, 0xda, 0x3c, 0x55, 0x6c, 0x8e, 0x3f, 0x7f, 0x4d, 0xa4, 0x89,
  0x06, 0x14, 0x1a, 0x07, 0x25, 0x5e, 0x82, 0x3f, 0x81, 0x15, 0x5f, 0x3e,
  0x96, 0xca, 0xee, 0x3e, 0x47, 0x11, 0x8d, 0xbf, 0x0a, 0x97, 0x84, 0x3f,
  0x02, 0x82, 0xf8, 0x3a, 0xa0, 0xcb, 0x11, 0xbb, 0xdd, 0xd7, 0x8f, 0x3f,
  0xaa, 0xb8, 0x59, 0xbf, 0xeb, 0x88, 0x31, 0x3c, 0x71, 0xc2, 0x52, 0x89,
  0x3d, 0x76, 0x53, 0x89, 0x23, 0x18, 0xf8, 0x88, 0x33, 0xd6, 0xa5, 0x09,
  0xb7, 0xeb, 0x49, 0x3f, 0xb4, 0xca, 0x20, 0xbe, 0x69, 0x49, 0xc1, 0x3b,
  0x6c, 0x35, 0x84, 0x3f, 0xfd, 0x00, 0xd2, 0x89, 0x38, 0x3a, 0x2f, 0x09,
  0x82, 0xb0, 0xa4, 0xbc, 0xde, 0x6f, 0x8e, 0x3f, 0x5a, 0xf9, 0xff, 0xff,
  0x04, 0x00, 0x00, 0x00, 0x40, 0x00, 0x00, 0x00, 0x90, 0x5a, 0x02, 0xbf,
  0x68, 0x43, 0xd7, 0xbe, 0x4b, 0xf2, 0x21, 0x3f, 0x95, 0x51, 0xc3, 0xbe,
  0x67, 0x1f, 0xae, 0x92, 0x50, 0xba, 0xfc, 0xbe, 0xa6, 0x9e, 0x3d, 0x3e,
  0x5b, 0x01, 0xb5, 0xbe, 0xd0, 0xfa, 0xbb, 0xbe, 0xfc, 0x56, 0x1b, 0x3f,
  0xfc, 0xad, 0x92, 0x95, 0x17, 0xb6, 0x44, 0x96, 0x47, 0xac, 0x1e, 0xbe,
  0x83, 0x61, 0xb4, 0xbe, 0x88, 0x5c, 0x3a, 0xa1, 0x14, 0xe9, 0xb4, 0xbe,
  0xa6, 0xf9, 0xff, 0xff, 0x04, 0x00, 0x00, 0x00, 0x40, 0x00, 0x00, 0x00,
  0xbc, 0xb5, 0xc3, 0x3b, 0x92, 0x55, 0xc1, 0x3d, 0xf2, 0x9c, 0x13, 0xbc,
  0xde, 0x02, 0x3b, 0xbc, 0x13, 0xab, 0xf3, 0x3e, 0x85, 0x99, 0x66, 0xbc,
  0xea, 0xce, 0x1d, 0xbc, 0x3f, 0xd1, 0x5a, 0x3c, 0x0e, 0x32, 0x5c, 0xbe,
  0x50, 0x4c, 0x0b, 0x3f, 0x0a, 0xb3, 0x09, 0x3f, 0x06, 0x4d, 0xf8, 0x3d,
  0xda, 0x33, 0x00, 0x3f, 0x66, 0x4e, 0xfc, 0xbc, 0x0f, 0x58, 0x3f, 0xbe,
  0x8d, 0xca, 0x08, 0x3f, 0xf2, 0xf9, 0xff, 0xff, 0x04, 0x00, 0x00, 0x00,
  0x14, 0x00, 0x00, 0x00, 0x58, 0x8f, 0x64, 0x3e, 0xd9, 0x73, 0x5b, 0xbf,
  0x61, 0x9d, 0x6e, 0x3f, 0x69, 0x28, 0x21, 0xbe, 0xdd, 0x73, 0x9b, 0xbe,
  0x12, 0xfa, 0xff, 0xff, 0x04, 0x00, 0x00, 0x00, 0x00, 0x04, 0x00, 0x00,
  0xcd, 0x48, 0x20, 0xbd, 0xfa, 0xf3, 0x9c, 0xbb, 0x15, 0x0b, 0x2a, 0xbc,
  0x91, 0xac, 0x6a, 0x3f, 0xe3, 0xf9, 0x80, 0x09, 0x30, 0x48, 0x34, 0x3d,
  0x25, 0xb4, 0x1a, 0xbe, 0xab, 0x2e, 0x43, 0x3c, 0x37, 0x3b, 0x65, 0x3f,
  0xe3, 0xc3, 0x1c, 0xbc, 0x64, 0xc5, 0x93, 0x07, 0x5c, 0xa0, 0x85, 0x0b,
  0xbd, 0xea, 0xb4, 0x3c, 0x51, 0x47, 0x5e, 0x3f, 0x80, 0x88, 0x6d, 0x08,
  0xaf, 0xbe, 0x3e, 0x3f, 0xbb, 0x7c, 0xe5, 0x3d, 0xc5, 0xa5, 0x8d, 0x3d,
  0x8f, 0x5e, 0xda, 0xbe, 0xf8, 0x6e, 0xf6, 0xbe, 0x02, 0x37, 0x15, 0x89,
  0x72, 0xd4, 0x3b, 0x3e, 0xb7, 0xb9, 0x20, 0x3f, 0xb2, 0x8e, 0xd9, 0x3d,
  0xd5, 0xec, 0xcf, 0xbe, 0x00, 0x0d, 0xae, 0xbe, 0x28, 0xcc, 0x6a, 0x89,
  0x9e, 0x56, 0x16, 0x89, 0x3b, 0x22, 0x67, 0x3e, 0x56, 0x33, 0xf3, 0xbe,
  0xf0, 0x97, 0x5e, 0x09, 0xc6, 0x7a, 0x01, 0xbf, 0x92, 0xae, 0xa8, 0x3d,
  0x29, 0xd0, 0xb2, 0xbc, 0x62, 0x0f, 0x56, 0x3c, 0xe1, 0xe0, 0x56, 0x3f,
  0xf2, 0x79, 0x7d, 0x89, 0x25, 0xee, 0x40, 0x3d, 0xde, 0x74, 0x72, 0xbe,
  0xe4, 0x4a, 0x83, 0x3c, 0xd7, 0x56, 0x4f, 0x3f, 0x22, 0x39, 0xec, 0x3c,
  0x83, 0xca, 0x44, 0x89, 0xa0, 0x47, 0xf1, 0x89, 0x91, 0x7f, 0x0f, 0x3c,
  0x67, 0x31, 0x43, 0x3f, 0x36, 0x7b, 0x0c, 0x07, 0xcc, 0x51, 0x4f, 0x3f,
  0xee, 0x65, 0x8b, 0x3f, 0x5b, 0x5e, 0x6a, 0x3f, 0xa1, 0x28, 0xc3, 0xbc,
  0xac, 0x36, 0x42, 0x3c, 0x94, 0x37, 0xe2, 0x87, 0x1e, 0x30, 0x82, 0x3f,
  0xfe, 0x1d, 0xd1, 0xbd, 0x48, 0xd1, 0x6f, 0x3f, 0x74, 0x74, 0x21, 0x3c,
  0x48, 0x39, 0x5e, 0xbc, 0x65, 0xef, 0xd1, 0x89, 0x0d, 0xaf, 0xa9, 0x89,
  0xc5, 0x65, 0x0b, 0x3f, 0xe6, 0x1e, 0x19, 0x3c, 0xce, 0x84, 0xc7, 0x88,
  0x92, 0x3e, 0x58, 0x3c, 0xb1, 0xf5, 0xbe, 0xbd, 0x25, 0xa4, 0x4e, 0xbd,
  0xb1, 0xe8, 0x71, 0xbc, 0x52, 0x07, 0xf5, 0xbe, 0x37, 0x5e, 0x94, 0x09,
  0x6f, 0xac, 0xb1, 0xbd, 0xd4, 0xcc, 0x53, 0x3f, 0xa8, 0xd6, 0x39, 0x3d,
  0x2c, 0xfb, 0xee, 0xbe, 0x11, 0xc8, 0x69, 0x3d, 0x7d, 0x54, 0x20, 0x09,
  0x0d, 0xf9, 0x2c, 0x89, 0x6f, 0x0f, 0xfc, 0x3d, 0xd3, 0xed, 0x05, 0xbf,
  0xb4, 0xa9, 0x06, 0x0c, 0x61, 0x23, 0xf5, 0xbe, 0xe1, 0x5b, 0xac, 0x3c,
  0xc0, 0xee, 0xf1, 0x3b, 0x37, 0x66, 0x2b, 0x3d, 0x6f, 0xb3, 0x4c, 0x3f,
  0xf3, 0xe3, 0x3f, 0x89, 0xa8, 0x45, 0xa4, 0x3d, 0xb3, 0x22, 0x5e, 0xbe,
  0x66, 0xe6, 0x14, 0x3d, 0x5e, 0x66, 0x6a, 0x3f, 0x43, 0x09, 0x40, 0x3c,
  0xa0, 0x42, 0x8f, 0x09, 0xfe, 0x23, 0x65, 0x08, 0x10, 0x8d, 0x14, 0x3d,
  0xd1, 0x08, 0x5c, 0x3f, 0xc0, 0x4a, 0xfa, 0x87, 0x08, 0xfe, 0x5d, 0x3f,
  0x59, 0x0e, 0x86, 0x3f, 0xf1, 0xc7, 0x7d, 0x3f, 0xe8, 0xbe, 0xfd, 0xbc,
  0xc7, 0xbe, 0xba, 0x3c, 0x38, 0x62, 0x43, 0x89, 0x63, 0x91, 0x67, 0x3f,
  0xf8, 0xb3, 0x26, 0xbd, 0x1a, 0x5e, 0x73, 0x3f, 0x1d, 0x31, 0x9b, 0x3c,
  0xfb, 0xda, 0x41, 0xbd, 0xb9, 0x27, 0x82, 0x89, 0x48, 0x59, 0x32, 0x09,
  0xd1, 0xf6, 0x15, 0x3f, 0x9e, 0x86, 0x53, 0xbb, 0xec, 0xf5, 0xb9, 0x09,
  0x8b, 0xa0, 0x18, 0x3c, 0x2e, 0xdb, 0x67, 0x3f, 0xba, 0x0b, 0x7f, 0x3f,
  0xc6, 0x21, 0xb2, 0xbc, 0xee, 0xfb, 0x81, 0x3c, 0x14, 0x86, 0xea, 0x09,
  0x31, 0x6b, 0x52, 0x3f, 0x86, 0x5a, 0x5f, 0xbe, 0xb8, 0xb7, 0x60, 0x3f,
  0x57, 0xd6, 0x09, 0xbd, 0xda, 0x00, 0xeb, 0xbc, 0x97, 0x03, 0xe8, 0x88,
  0x68, 0x19, 0x14, 0x09, 0xfd, 0x5b, 0x2a, 0x3f, 0x1d, 0x45, 0x94, 0x3c,
  0x17, 0x45, 0x1c, 0x89, 0x96, 0x89, 0x9d, 0x3a, 0xfa, 0x54, 0xe8, 0xbe,
  0x1e, 0x87, 0x0b, 0xbf, 0xa2, 0x6a, 0x1e, 0x3e, 0x7e, 0x7a, 0xa7, 0x3e,
  0x8f, 0xff, 0xa6, 0x09, 0xbe, 0x58, 0xc8, 0xbe, 0x4b, 0x13, 0xa7, 0xbd,
  0xaf, 0x16, 0x1c, 0xbf, 0xff, 0x1a, 0x81, 0x3e, 0x1b, 0xb4, 0x22, 0x3e,
  0x6e, 0xb9, 0xe7, 0x09, 0x08, 0xd0, 0x8f, 0x88, 0x31, 0xea, 0x43, 0xbf,
  0xb6, 0xe8, 0xb9, 0x3e, 0xda, 0x9b, 0x1c, 0x09, 0x08, 0x3a, 0xa8, 0x3e,
  0x3f, 0xda, 0x33, 0xbe, 0xce, 0x87, 0x3e, 0xbe, 0xe3, 0xe6, 0x9a, 0x3f,
  0x82, 0x60, 0x09, 0xbe, 0xc0, 0x1d, 0x86, 0x89, 0x99, 0xa4, 0x71, 0xbe,
  0x70, 0x88, 0x77, 0xbe, 0x8b, 0xa3, 0x4d, 0xbe, 0x12, 0xdf, 0x10, 0xbe,
  0x22, 0x84, 0x9c, 0x3f, 0x7c, 0xc7, 0x7f, 0x08, 0x4a, 0xd8, 0xa5, 0x09,
  0xf9, 0x1d, 0x49, 0xbe, 0xea, 0xd0, 0x3c, 0xbe, 0xb3, 0x69, 0x80, 0x89,
  0x85, 0x33, 0xf4, 0xbd, 0xa5, 0xca, 0x44, 0xbe, 0x55, 0x10, 0x68, 0xbe,
  0xec, 0xef, 0x98, 0x3f, 0x7f, 0x7d, 0xe1, 0xbd, 0x4a, 0x92, 0xe7, 0x89,
  0xab, 0xd4, 0x80, 0xbe, 0x6e, 0x68, 0x87, 0xbe, 0x3f, 0x30, 0x76, 0xbe,
  0x53, 0x2d, 0xc4, 0xbd, 0x25, 0xed, 0x95, 0x3f, 0xf2, 0x6a, 0xef, 0x09,
  0x90, 0x73, 0x40, 0x88, 0xbe, 0xa4, 0x5e, 0xbe, 0x17, 0x97, 0x02, 0xbe,
  0xf2, 0x75, 0xb7, 0x09, 0x93, 0xcc, 0x07, 0xbe, 0x3b, 0x48, 0x1f, 0x3e,
  0x53, 0xe9, 0xfb, 0x3d, 0x2d, 0x19, 0xe7, 0xbe, 0xb1, 0x4a, 0xfc, 0xbe,
  0x48, 0x6e, 0x8d, 0x87, 0x4c, 0xd1, 0x1d, 0x3e, 0xe0, 0xf2, 0x06, 0x3f,
  0x76, 0x09, 0xe9, 0x3d, 0x97, 0x24, 0x0c, 0xbf, 0x03, 0xce, 0xdd, 0xbe,
  0xe6, 0x78, 0x9d, 0x89, 0x8c, 0x84, 0xcf, 0x89, 0xd7, 0xe9, 0xa5, 0x3d,
  0x3d, 0xef, 0xf7, 0xbe, 0x8a, 0x85, 0x5f, 0x09, 0x00, 0x3a, 0x07, 0xbf,
  0x4d, 0xd8, 0xd3, 0x3c, 0xa1, 0xeb, 0xd0, 0x3d, 0x13, 0x24, 0x6e, 0xbc,
  0xfd, 0x0f, 0x9b, 0xbe, 0x47, 0xfc, 0x87, 0x89, 0xd7, 0x32, 0x9c, 0xbd,
  0x8a, 0x79, 0x2e, 0x3f, 0xb9, 0x8b, 0x2b, 0x3d, 0x15, 0x03, 0x9b, 0xbe,
  0xeb, 0xd3, 0x25, 0xbd, 0x92, 0x2b, 0xa6, 0x09, 0x9f, 0x07, 0xaf, 0x88,
  0xbd, 0x10, 0xa2, 0x3e, 0xd9, 0x23, 0xaa, 0xbe, 0xa8, 0x61, 0x2b, 0x89,
  0x3b, 0xb8, 0xa8, 0xbe, 0xdc, 0x3b, 0xba, 0x3a, 0x57, 0x99, 0xda, 0x3c,
  0x59, 0x02, 0x0d, 0x3d, 0x0b, 0x66, 0x45, 0x3f, 0xb6, 0x01, 0xf2, 0x89,
  0xda, 0xf6, 0x38, 0x3d, 0xeb, 0xa0, 0x61, 0xbe, 0xe5, 0x3d, 0x06, 0x3d,
  0x78, 0xfa, 0x4e, 0x3f, 0x72, 0x76, 0xf5, 0x3c, 0xe0, 0x06, 0xe6, 0x88,
  0xd3, 0x19, 0x13, 0x09, 0x91, 0x6c, 0xc6, 0x3c, 0x6f, 0xf6, 0x63, 0x3f,
  0xc6, 0x51, 0x22, 0x89, 0x7d, 0x01, 0x38, 0x3f, 0xb6, 0x9a, 0xa2, 0x3e,
  0x01, 0xf0, 0x7e, 0x3e, 0x11, 0x9c, 0x54, 0xbf, 0x93, 0xb4, 0xd9, 0x3d,
  0xc8, 0x7b, 0x0b, 0x89, 0x69, 0x7a, 0x92, 0x3e, 0x73, 0xe0, 0x15, 0x3f,
  0x71, 0xaf, 0x9a, 0x3e, 0xe7, 0xa5, 0x17, 0x3e, 0x8d, 0xfd, 0x4e, 0xbf,
  0xc8, 0xc8, 0xc4, 0x88, 0xcc, 0x98, 0xde, 0x08, 0x02, 0x48, 0x5c, 0x3e,
  0x52, 0xbf, 0x92, 0xbc, 0x18, 0x5f, 0xa0, 0x89, 0x87, 0x12, 0x11, 0x3e,
  0x78, 0x95, 0x5d, 0xbe, 0xc3, 0x36, 0x69, 0xbe, 0xca, 0x32, 0x94, 0x3f,
  0x5e, 0x02, 0x28, 0xbd, 0xbe, 0xc5, 0xd0, 0x87, 0xd2, 0xa1, 0x8c, 0xbe,
  0x79, 0x47, 0x9f, 0xbe, 0x36, 0x29, 0x62, 0xbe, 0x7b, 0x70, 0xbe, 0xbd,
  0xd5, 0xe9, 0x96, 0x3f, 0xc0, 0xd5, 0x6a, 0x89, 0x14, 0x1e, 0x99, 0x88,
  0xa4, 0x8a, 0x56, 0xbe, 0x12, 0x66, 0x02, 0xbe, 0xa2, 0x63, 0xc8, 0x09,
  0x46, 0xb0, 0xd8, 0xbd, 0x1e, 0xfe, 0xff, 0xff, 0x04, 0x00, 0x00, 0x00,
  0x40, 0x01, 0x00, 0x00, 0x6a, 0x25, 0xd2, 0x3e, 0x15, 0x4e, 0xbb, 0xbf,
  0xb4, 0x61, 0xc6, 0x3e, 0xc8, 0x1e, 0x05, 0x3f, 0x1d, 0xf2, 0x96, 0xbe,
  0xf8, 0xb8, 0x8b, 0x3e, 0xe2, 0x23, 0xfc, 0x3e, 0x91, 0x21, 0x1b, 0x3f,
  0x20, 0x88, 0xf2, 0xbf, 0xf1, 0x3e, 0xe0, 0x3e, 0xd2, 0x32, 0xc5, 0x3d,
  0xa7, 0x65, 0xe3, 0xbf, 0xd4, 0xb6, 0x87, 0xbe, 0xf6, 0x01, 0xc9, 0x3e,
  0x95, 0xbe, 0xa6, 0xbf, 0xf6, 0xb6, 0xe0, 0x3e, 0x5c, 0xd3, 0x47, 0x3f,
  0xdc, 0xdc, 0x76, 0xbe, 0xd0, 0xb9, 0x31, 0x3f, 0xf3, 0x51, 0x3d, 0x3f,
  0xec, 0x2b, 0xab, 0xbf, 0x78, 0xe4, 0x1b, 0x3f, 0x48, 0xb3, 0x38, 0x3f,
  0xfd, 0x69, 0x4b, 0x3f, 0xe6, 0x3d, 0x5a, 0xbf, 0x82, 0xf9, 0x16, 0xc0,
  0xb4, 0xc3, 0x0a, 0xc0, 0x51, 0xef, 0xc4, 0xbe, 0x0d, 0xea, 0x76, 0xbf,
  0x5b, 0x04, 0x48, 0x3f, 0x1e, 0x61, 0x20, 0x3f, 0xda, 0xbf, 0xd3, 0xbf,
  0x82, 0xfb, 0xef, 0xbf, 0xa1, 0x23, 0xcb, 0xbe, 0x27, 0xa0, 0xf5, 0xbf,
  0xdc, 0x70, 0xf4, 0xbf, 0xa0, 0x8c, 0x51, 0x3f, 0xde, 0xf3, 0x03, 0xc0,
  0x16, 0xdd, 0xc2, 0xbf, 0x46, 0xa7, 0xe1, 0xbf, 0x72, 0x2a, 0x2e, 0xbf,
  0xf8, 0x71, 0x57, 0x3f, 0x80, 0x4d, 0x00, 0x3f, 0x52, 0xc7, 0x2c, 0xbf,
  0x96, 0x02, 0x13, 0x3e, 0x74, 0xcc, 0xde, 0xbf, 0x89, 0x2c, 0xe1, 0xbf,
  0x9d, 0x30, 0x54, 0x3f, 0x78, 0x6b, 0xcb, 0xbf, 0x0a, 0xa2, 0xef, 0x3f,
  0x38, 0xaa, 0xbb, 0xbf, 0x93, 0x12, 0x3a, 0x3f, 0x32, 0x5b, 0x4f, 0x3f,
  0x1a, 0x09, 0xf2, 0xbf, 0x90, 0xa0, 0x35, 0x3f, 0x19, 0x6b, 0x31, 0x3f,
  0xbd, 0xed, 0x80, 0xbf, 0x2a, 0xe7, 0x85, 0xbf, 0x8d, 0xea, 0xb4, 0xbf,
  0x9d, 0xea, 0xf1, 0x3f, 0x8f, 0xdd, 0x86, 0x3e, 0x76, 0xb9, 0xdc, 0xbf,
  0xb3, 0x6a, 0x70, 0x3f, 0xa9, 0xde, 0xa3, 0xbf, 0x08, 0x18, 0x42, 0x3f,
  0x03, 0xd9, 0x9f, 0xbf, 0x10, 0x0c, 0x21, 0x3f, 0xa6, 0x56, 0x01, 0xc0,
  0x36, 0xff, 0x18, 0xbf, 0x1b, 0x1b, 0xf9, 0x3e, 0x22, 0xa9, 0xf0, 0xbf,
  0x28, 0x39, 0x97, 0xbf, 0xa2, 0x02, 0xde, 0x3f, 0x1e, 0x2b, 0x3b, 0x3f,
  0x6d, 0xcd, 0xba, 0x3e, 0x5a, 0xad, 0x7a, 0xbf, 0xfe, 0x57, 0xa0, 0xbf,
  0xea, 0xef, 0x35, 0x3f, 0x8b, 0x82, 0xa7, 0xbf, 0xce, 0xab, 0x2a, 0x3f,
  0x64, 0xfa, 0xff, 0xff, 0x68, 0xfa, 0xff, 0xff, 0x0f, 0x00, 0x00, 0x00,
  0x4d, 0x4c, 0x49, 0x52, 0x20, 0x43, 0x6f, 0x6e, 0x76, 0x65, 0x72, 0x74,
  0x65, 0x64, 0x2e, 0x00, 0x01, 0x00, 0x00, 0x00, 0x14, 0x00, 0x00, 0x00,
  0x00, 0x00, 0x0e, 0x00, 0x18, 0x00, 0x14, 0x00, 0x10, 0x00, 0x0c, 0x00,
  0x08, 0x00, 0x04, 0x00, 0x0e, 0x00, 0x00, 0x00, 0x14, 0x00, 0x00, 0x00,
  0x1c, 0x00, 0x00, 0x00, 0x24, 0x01, 0x00, 0x00, 0x28, 0x01, 0x00, 0x00,
  0x2c, 0x01, 0x00, 0x00, 0x04, 0x00, 0x00, 0x00, 0x6d, 0x61, 0x69, 0x6e,
  0x00, 0x00, 0x00, 0x00, 0x04, 0x00, 0x00, 0x00, 0xcc, 0x00, 0x00, 0x00,
  0x84, 0x00, 0x00, 0x00, 0x50, 0x00, 0x00, 0x00, 0x14, 0x00, 0x00, 0x00,
  0x00, 0x00, 0x0e, 0x00, 0x1a, 0x00, 0x14, 0x00, 0x10, 0x00, 0x0c, 0x00,
  0x0b, 0x00, 0x04, 0x00, 0x0e, 0x00, 0x00, 0x00, 0x1c, 0x00, 0x00, 0x00,
  0x00, 0x00, 0x00, 0x09, 0x1c, 0x00, 0x00, 0x00, 0x20, 0x00, 0x00, 0x00,
  0x01, 0x00, 0x00, 0x00, 0x00, 0x00, 0x06, 0x00, 0x08, 0x00, 0x04, 0x00,
  0x06, 0x00, 0x00, 0x00, 0x00, 0x00, 0x80, 0x3f, 0x01, 0x00, 0x00, 0x00,
  0x0a, 0x00, 0x00, 0x00, 0x01, 0x00, 0x00, 0x00, 0x09, 0x00, 0x00, 0x00,
  0x9a, 0xff, 0xff, 0xff, 0x10, 0x00, 0x00, 0x00, 0x00, 0x00, 0x00, 0x08,
  0x0c, 0x00, 0x00, 0x00, 0x10, 0x00, 0x00, 0x00, 0x2c, 0xfb, 0xff, 0xff,
  0x01, 0x00, 0x00, 0x00, 0x09, 0x00, 0x00, 0x00, 0x03, 0x00, 0x00, 0x00,
  0x08, 0x00, 0x00, 0x00, 0x01, 0x00, 0x00, 0x00, 0x03, 0x00, 0x00, 0x00,
  0xca, 0xff, 0xff, 0xff, 0x10, 0x00, 0x00, 0x00, 0x00, 0x00, 0x00, 0x08,
  0x10, 0x00, 0x00, 0x00, 0x14, 0x00, 0x00, 0x00, 0xba, 0xff, 0xff, 0xff,
  0x00, 0x00, 0x00, 0x01, 0x01, 0x00, 0x00, 0x00, 0x08, 0x00, 0x00, 0x00,
  0x03, 0x00, 0x00, 0x00, 0x07, 0x00, 0x00, 0x00, 0x02, 0x00, 0x00, 0x00,
  0x04, 0x00, 0x00, 0x00, 0x00, 0x00, 0x0e, 0x00, 0x16, 0x00, 0x00, 0x00,
  0x10, 0x00, 0x0c, 0x00, 0x0b, 0x00, 0x04, 0x00, 0x0e, 0x00, 0x00, 0x00,
  0x18, 0x00, 0x00, 0x00, 0x00, 0x00, 0x00, 0x08, 0x18, 0x00, 0x00, 0x00,
  0x1c, 0x00, 0x00, 0x00, 0x00, 0x00, 0x06, 0x00, 0x08, 0x00, 0x07, 0x00,
  0x06, 0x00, 0x00, 0x00, 0x00, 0x00, 0x00, 0x01, 0x01, 0x00, 0x00, 0x00,
  0x07, 0x00, 0x00, 0x00, 0x03, 0x00, 0x00, 0x00, 0x00, 0x00, 0x00, 0x00,
  0x06, 0x00, 0x00, 0x00, 0x05, 0x00, 0x00, 0x00, 0x01, 0x00, 0x00, 0x00,
  0x0a, 0x00, 0x00, 0x00, 0x01, 0x00, 0x00, 0x00, 0x00, 0x00, 0x00, 0x00,
  0x0b, 0x00, 0x00, 0x00, 0xfc, 0x03, 0x00, 0x00, 0xa4, 0x03, 0x00, 0x00,
  0x4c, 0x03, 0x00, 0x00, 0x10, 0x03, 0x00, 0x00, 0xb4, 0x02, 0x00, 0x00,
  0x5c, 0x02, 0x00, 0x00, 0x10, 0x02, 0x00, 0x00, 0x7c, 0x01, 0x00, 0x00,
  0xe0, 0x00, 0x00, 0x00, 0x60, 0x00, 0x00, 0x00, 0x04, 0x00, 0x00, 0x00,
  0x46, 0xfc, 0xff, 0xff, 0x00, 0x00, 0x00, 0x01, 0x14, 0x00, 0x00, 0x00,
  0x1c, 0x00, 0x00, 0x00, 0x1c, 0x00, 0x00, 0x00, 0x0b, 0x00, 0x00, 0x00,
  0x34, 0x00, 0x00, 0x00, 0x02, 0x00, 0x00, 0x00, 0xff, 0xff, 0xff, 0xff,
  0x05, 0x00, 0x00, 0x00, 0x30, 0xfc, 0xff, 0xff, 0x1b, 0x00, 0x00, 0x00,
  0x53, 0x74, 0x61, 0x74, 0x65, 0x66, 0x75, 0x6c, 0x50, 0x61, 0x72, 0x74,
  0x69, 0x74, 0x69, 0x6f, 0x6e, 0x65, 0x64, 0x43, 0x61, 0x6c, 0x6c, 0x5f,
  0x31, 0x3a, 0x30, 0x00, 0x02, 0x00, 0x00, 0x00, 0x01, 0x00, 0x00, 0x00,
  0x05, 0x00, 0x00, 0x00, 0x9e, 0xfc, 0xff, 0xff, 0x00, 0x00, 0x00, 0x01,
  0x14, 0x00, 0x00, 0x00, 0x1c, 0x00, 0x00, 0x00, 0x1c, 0x00, 0x00, 0x00,
  0x0a, 0x00, 0x00, 0x00, 0x58, 0x00, 0x00, 0x00, 0x02, 0x00, 0x00, 0x00,
  0xff, 0xff, 0xff, 0xff, 0x05, 0x00, 0x00, 0x00, 0x88, 0xfc, 0xff, 0xff,
  0x3c, 0x00, 0x00, 0x00, 0x73, 0x65, 0x71, 0x75, 0x65, 0x6e, 0x74, 0x69,
  0x61, 0x6c, 0x5f, 0x31, 0x2f, 0x64, 0x65, 0x6e, 0x73, 0x65, 0x5f, 0x32,
  0x5f, 0x31, 0x2f, 0x4d, 0x61, 0x74, 0x4d, 0x75, 0x6c, 0x3b, 0x73, 0x65,
  0x71, 0x75, 0x65, 0x6e, 0x74, 0x69, 0x61, 0x6c, 0x5f, 0x31, 0x2f, 0x64,
  0x65, 0x6e, 0x73, 0x65, 0x5f, 0x32, 0x5f, 0x31, 0x2f, 0x42, 0x69, 0x61,
  0x73, 0x41, 0x64, 0x64, 0x00, 0x00, 0x00, 0x00, 0x02, 0x00, 0x00, 0x00,
  0x01, 0x00, 0x00, 0x00, 0x05, 0x00, 0x00, 0x00, 0x1a, 0xfd, 0xff, 0xff,
  0x00, 0x00, 0x00, 0x01, 0x14, 0x00, 0x00, 0x00, 0x1c, 0x00, 0x00, 0x00,
  0x1c, 0x00, 0x00, 0x00, 0x09, 0x00, 0x00, 0x00, 0x74, 0x00, 0x00, 0x00,
  0x02, 0x00, 0x00, 0x00, 0xff, 0xff, 0xff, 0xff, 0x10, 0x00, 0x00, 0x00,
  0x04, 0xfd, 0xff, 0xff, 0x58, 0x00, 0x00, 0x00, 0x73, 0x65, 0x71, 0x75,
  0x65, 0x6e, 0x74, 0x69, 0x61, 0x6c, 0x5f, 0x31, 0x2f, 0x64, 0x65, 0x6e,
  0x73, 0x65, 0x5f, 0x31, 0x5f, 0x32, 0x2f, 0x4d, 0x61, 0x74, 0x4d, 0x75,
  0x6c, 0x3b, 0x73, 0x65, 0x71, 0x75, 0x65, 0x6e, 0x74, 0x69, 0x61, 0x6c,
  0x5f, 0x31, 0x2f, 0x64, 0x65, 0x6e, 0x73, 0x65, 0x5f, 0x31, 0x5f, 0x32,
  0x2f, 0x52, 0x65, 0x6c, 0x75, 0x3b, 0x73, 0x65, 0x71, 0x75, 0x65, 0x6e,
  0x74, 0x69, 0x61, 0x6c, 0x5f, 0x31, 0x2f, 0x64, 0x65, 0x6e, 0x73, 0x65,
  0x5f, 0x31, 0x5f, 0x32, 0x2f, 0x42, 0x69, 0x61, 0x73, 0x41, 0x64, 0x64,
  0x00, 0x00, 0x00, 0x00, 0x02, 0x00, 0x00, 0x00, 0x01, 0x00, 0x00, 0x00,
  0x10, 0x00, 0x00, 0x00, 0xb2, 0xfd, 0xff, 0xff, 0x00, 0x00, 0x00, 0x01,
  0x14, 0x00, 0x00, 0x00, 0x1c, 0x00, 0x00, 0x00, 0x1c, 0x00, 0x00, 0x00,
  0x08, 0x00, 0x00, 0x00, 0x6c, 0x00, 0x00, 0x00, 0x02, 0x00, 0x00, 0x00,
  0xff, 0xff, 0xff, 0xff, 0x10, 0x00, 0x00, 0x00, 0x9c, 0xfd, 0xff, 0xff,
  0x52, 0x00, 0x00, 0x00, 0x73, 0x65, 0x71, 0x75, 0x65, 0x6e, 0x74, 0x69,
  0x61, 0x6c, 0x5f, 0x31, 0x2f, 0x64, 0x65, 0x6e, 0x73, 0x65, 0x5f, 0x31,
  0x2f, 0x4d, 0x61, 0x74, 0x4d, 0x75, 0x6c, 0x3b, 0x73, 0x65, 0x71, 0x75,
  0x65, 0x6e, 0x74, 0x69, 0x61, 0x6c, 0x5f, 0x31, 0x2f, 0x64, 0x65, 0x6e,
  0x73, 0x65, 0x5f, 0x31, 0x2f, 0x52, 0x65, 0x6c, 0x75, 0x3b, 0x73, 0x65,
  0x71, 0x75, 0x65, 0x6e, 0x74, 0x69, 0x61, 0x6c, 0x5f, 0x31, 0x2f, 0x64,
  0x65, 0x6e, 0x73, 0x65, 0x5f, 0x31, 0x2f, 0x42, 0x69, 0x61, 0x73, 0x41,
  0x64, 0x64, 0x00, 0x00, 0x02, 0x00, 0x00, 0x00, 0x01, 0x00, 0x00, 0x00,
  0x10, 0x00, 0x00, 0x00, 0x96, 0xfe, 0xff, 0xff, 0x00, 0x00, 0x00, 0x01,
  0x10, 0x00, 0x00, 0x00, 0x10, 0x00, 0x00, 0x00, 0x07, 0x00, 0x00, 0x00,
  0x28, 0x00, 0x00, 0x00, 0x1c, 0xfe, 0xff, 0xff, 0x1b, 0x00, 0x00, 0x00,
  0x73, 0x65, 0x71, 0x75, 0x65, 0x6e, 0x74, 0x69, 0x61, 0x6c, 0x5f, 0x31,
  0x2f, 0x64, 0x65, 0x6e, 0x73, 0x65, 0x5f, 0x31, 0x2f, 0x4d, 0x61, 0x74,
  0x4d, 0x75, 0x6c, 0x00, 0x02, 0x00, 0x00, 0x00, 0x10, 0x00, 0x00, 0x00,
  0x02, 0x00, 0x00, 0x00, 0xde, 0xfe, 0xff, 0xff, 0x00, 0x00, 0x00, 0x01,
  0x10, 0x00, 0x00, 0x00, 0x10, 0x00, 0x00, 0x00, 0x06, 0x00, 0x00, 0x00,
  0x38, 0x00, 0x00, 0x00, 0x64, 0xfe, 0xff, 0xff, 0x2b, 0x00, 0x00, 0x00,
  0x73, 0x65, 0x71, 0x75, 0x65, 0x6e, 0x74, 0x69, 0x61, 0x6c, 0x5f, 0x31,
  0x2f, 0x64, 0x65, 0x6e, 0x73, 0x65, 0x5f, 0x31, 0x2f, 0x42, 0x69, 0x61,
  0x73, 0x41, 0x64, 0x64, 0x2f, 0x52, 0x65, 0x61, 0x64, 0x56, 0x61, 0x72,
  0x69, 0x61, 0x62, 0x6c, 0x65, 0x4f, 0x70, 0x00, 0x01, 0x00, 0x00, 0x00,
  0x10, 0x00, 0x00, 0x00, 0x32, 0xff, 0xff, 0xff, 0x00, 0x00, 0x00, 0x01,
  0x10, 0x00, 0x00, 0x00, 0x10, 0x00, 0x00, 0x00, 0x05, 0x00, 0x00, 0x00,
  0x3c, 0x00, 0x00, 0x00, 0xb8, 0xfe, 0xff, 0xff, 0x2d, 0x00, 0x00, 0x00,
  0x73, 0x65, 0x71, 0x75, 0x65, 0x6e, 0x74, 0x69, 0x61, 0x6c, 0x5f, 0x31,
  0x2f, 0x64, 0x65, 0x6e, 0x73, 0x65, 0x5f, 0x31, 0x5f, 0x32, 0x2f, 0x42,
  0x69, 0x61, 0x73, 0x41, 0x64, 0x64, 0x2f, 0x52, 0x65, 0x61, 0x64, 0x56,
  0x61, 0x72, 0x69, 0x61, 0x62, 0x6c, 0x65, 0x4f, 0x70, 0x00, 0x00, 0x00,
  0x01, 0x00, 0x00, 0x00, 0x10, 0x00, 0x00, 0x00, 0x8a, 0xff, 0xff, 0xff,
  0x00, 0x00, 0x00, 0x01, 0x10, 0x00, 0x00, 0x00, 0x10, 0x00, 0x00, 0x00,
  0x04, 0x00, 0x00, 0x00, 0x1c, 0x00, 0x00, 0x00, 0x10, 0xff, 0xff, 0xff,
  0x0f, 0x00, 0x00, 0x00, 0x61, 0x72, 0x69, 0x74, 0x68, 0x2e, 0x63, 0x6f,
  0x6e, 0x73, 0x74, 0x61, 0x6e, 0x74, 0x32, 0x00, 0x01, 0x00, 0x00, 0x00,
  0x05, 0x00, 0x00, 0x00, 0xc2, 0xff, 0xff, 0xff, 0x00, 0x00, 0x00, 0x01,
  0x10, 0x00, 0x00, 0x00, 0x10, 0x00, 0x00, 0x00, 0x03, 0x00, 0x00, 0x00,
  0x1c, 0x00, 0x00, 0x00, 0x48, 0xff, 0xff, 0xff, 0x0f, 0x00, 0x00, 0x00,
  0x61, 0x72, 0x69, 0x74, 0x68, 0x2e, 0x63, 0x6f, 0x6e, 0x73, 0x74, 0x61,
  0x6e, 0x74, 0x31, 0x00, 0x02, 0x00, 0x00, 0x00, 0x10, 0x00, 0x00, 0x00,
  0x10, 0x00, 0x00, 0x00, 0x00, 0x00, 0x16, 0x00, 0x18, 0x00, 0x14, 0x00,
  0x00, 0x00, 0x10, 0x00, 0x0c, 0x00, 0x08, 0x00, 0x00, 0x00, 0x00, 0x00,
  0x00, 0x00, 0x07, 0x00, 0x16, 0x00, 0x00, 0x00, 0x00, 0x00, 0x00, 0x01,
  0x10, 0x00, 0x00, 0x00, 0x10, 0x00, 0x00, 0x00, 0x02, 0x00, 0x00, 0x00,
  0x1c, 0x00, 0x00, 0x00, 0x9c, 0xff, 0xff, 0xff, 0x0e, 0x00, 0x00, 0x00,
  0x61, 0x72, 0x69, 0x74, 0x68, 0x2e, 0x63, 0x6f, 0x6e, 0x73, 0x74, 0x61,
  0x6e, 0x74, 0x00, 0x00, 0x02, 0x00, 0x00, 0x00, 0x05, 0x00, 0x00, 0x00,
  0x10, 0x00, 0x00, 0x00, 0x00, 0x00, 0x16, 0x00, 0x1c, 0x00, 0x18, 0x00,
  0x00, 0x00, 0x14, 0x00, 0x10, 0x00, 0x0c, 0x00, 0x00, 0x00, 0x00, 0x00,
  0x08, 0x00, 0x07, 0x00, 0x16, 0x00, 0x00, 0x00, 0x00, 0x00, 0x00, 0x01,
  0x14, 0x00, 0x00, 0x00, 0x20, 0x00, 0x00, 0x00, 0x20, 0x00, 0x00, 0x00,
  0x01, 0x00, 0x00, 0x00, 0x3c, 0x00, 0x00, 0x00, 0x02, 0x00, 0x00, 0x00,
  0xff, 0xff, 0xff, 0xff, 0x02, 0x00, 0x00, 0x00, 0x04, 0x00, 0x04, 0x00,
  0x04, 0x00, 0x00, 0x00, 0x1e, 0x00, 0x00, 0x00, 0x73, 0x65, 0x72, 0x76,
  0x69, 0x6e, 0x67, 0x5f, 0x64, 0x65, 0x66, 0x61, 0x75, 0x6c, 0x74, 0x5f,
  0x6b, 0x65, 0x72, 0x61, 0x73, 0x5f, 0x74, 0x65, 0x6e, 0x73, 0x6f, 0x72,
  0x3a, 0x30, 0x00, 0x00, 0x02, 0x00, 0x00, 0x00, 0x01, 0x00, 0x00, 0x00,
  0x02, 0x00, 0x00, 0x00, 0x02, 0x00, 0x00, 0x00, 0x20, 0x00, 0x00, 0x00,
  0x04, 0x00, 0x00, 0x00, 0xf4, 0xff, 0xff, 0xff, 0x19, 0x00, 0x00, 0x00,
  0x00, 0x00, 0x00, 0x19, 0x0c, 0x00, 0x0c, 0x00, 0x0b, 0x00, 0x00, 0x00,
  0x00, 0x00, 0x04, 0x00, 0x0c, 0x00, 0x00, 0x00, 0x09, 0x00, 0x00, 0x00,
  0x00, 0x00, 0x00, 0x09,
};
const unsigned int model_tflite_len = 3724;
