const unsigned char model_tflite[] = {
  0x1c, 0x00, 0x00, 0x00, 0x54, 0x46, 0x4c, 0x33, 0x14, 0x00, 0x20, 0x00,
  0x1c, 0x00, 0x18, 0x00, 0x14, 0x00, 0x10, 0x00, 0x0c, 0x00, 0x00, 0x00,
  0x08, 0x00, 0x04, 0x00, 0x14, 0x00, 0x00, 0x00, 0x1c, 0x00, 0x00, 0x00,
  0x98, 0x00, 0x00, 0x00, 0xf0, 0x00, 0x00, 0x00, 0x5c, 0x05, 0x00, 0x00,
  0x6c, 0x05, 0x00, 0x00, 0x20, 0x0b, 0x00, 0x00, 0x03, 0x00, 0x00, 0x00,
  0x01, 0x00, 0x00, 0x00, 0x10, 0x00, 0x00, 0x00, 0x00, 0x00, 0x0a, 0x00,
  0x10, 0x00, 0x0c, 0x00, 0x08, 0x00, 0x04, 0x00, 0x0a, 0x00, 0x00, 0x00,
  0x0c, 0x00, 0x00, 0x00, 0x1c, 0x00, 0x00, 0x00, 0x3c, 0x00, 0x00, 0x00,
  0x0f, 0x00, 0x00, 0x00, 0x73, 0x65, 0x72, 0x76, 0x69, 0x6e, 0x67, 0x5f,
  0x64, 0x65, 0x66, 0x61, 0x75, 0x6c, 0x74, 0x00, 0x01, 0x00, 0x00, 0x00,
  0x04, 0x00, 0x00, 0x00, 0x90, 0xff, 0xff, 0xff, 0x0a, 0x00, 0x00, 0x00,
  0x04, 0x00, 0x00, 0x00, 0x08, 0x00, 0x00, 0x00, 0x6f, 0x75, 0x74, 0x70,
  0x75, 0x74, 0x5f, 0x30, 0x00, 0x00, 0x00, 0x00, 0x01, 0x00, 0x00, 0x00,
  0x04, 0x00, 0x00, 0x00, 0x8a, 0xfa, 0xff, 0xff, 0x04, 0x00, 0x00, 0x00,
  0x0c, 0x00, 0x00, 0x00, 0x6b, 0x65, 0x72, 0x61, 0x73, 0x5f, 0x74, 0x65,
  0x6e, 0x73, 0x6f, 0x72, 0x00, 0x00, 0x00, 0x00, 0x02, 0x00, 0x00, 0x00,
  0x34, 0x00, 0x00, 0x00, 0x04, 0x00, 0x00, 0x00, 0xdc, 0xff, 0xff, 0xff,
  0x0d, 0x00, 0x00, 0x00, 0x04, 0x00, 0x00, 0x00, 0x13, 0x00, 0x00, 0x00,
  0x43, 0x4f, 0x4e, 0x56, 0x45, 0x52, 0x53, 0x49, 0x4f, 0x4e, 0x5f, 0x4d,
  0x45, 0x54, 0x41, 0x44, 0x41, 0x54, 0x41, 0x00, 0x08, 0x00, 0x0c, 0x00,
  0x08, 0x00, 0x04, 0x00, 0x08, 0x00, 0x00, 0x00, 0x0c, 0x00, 0x00, 0x00,
  0x04, 0x00, 0x00, 0x00, 0x13, 0x00, 0x00, 0x00, 0x6d, 0x69, 0x6e, 0x5f,
  0x72, 0x75, 0x6e, 0x74, 0x69, 0x6d, 0x65, 0x5f, 0x76, 0x65, 0x72, 0x73,
  0x69, 0x6f, 0x6e, 0x00, 0x0e, 0x00, 0x00, 0x00, 0x68, 0x04, 0x00, 0x00,
  0x60, 0x04, 0x00, 0x00, 0xf0, 0x03, 0x00, 0x00, 0xe0, 0x01, 0x00, 0x00,
  0xc4, 0x01, 0x00, 0x00, 0x94, 0x01, 0x00, 0x00, 0x44, 0x01, 0x00, 0x00,
  0xb4, 0x00, 0x00, 0x00, 0xac, 0x00, 0x00, 0x00, 0xa4, 0x00, 0x00, 0x00,
  0x9c, 0x00, 0x00, 0x00, 0x94, 0x00, 0x00, 0x00, 0x74, 0x00, 0x00, 0x00,
  0x04, 0x00, 0x00, 0x00, 0x3e, 0xfb, 0xff, 0xff, 0x04, 0x00, 0x00, 0x00,
  0x60, 0x00, 0x00, 0x00, 0x10, 0x00, 0x00, 0x00, 0x00, 0x00, 0x00, 0x00,
  0x08, 0x00, 0x0e, 0x00, 0x08, 0x00, 0x04, 0x00, 0x08, 0x00, 0x00, 0x00,
  0x10, 0x00, 0x00, 0x00, 0x24, 0x00, 0x00, 0x00, 0x00, 0x00, 0x06, 0x00,
  0x08, 0x00, 0x04, 0x00, 0x06, 0x00, 0x00, 0x00, 0x04, 0x00, 0x00, 0x00,
  0x00, 0x00, 0x00, 0x00, 0x0c, 0x00, 0x18, 0x00, 0x14, 0x00, 0x10, 0x00,
  0x0c, 0x00, 0x04, 0x00, 0x0c, 0x00, 0x00, 0x00, 0xcb, 0x85, 0xfc, 0x36,
  0x89, 0x5a, 0x65, 0x73, 0x02, 0x00, 0x00, 0x00, 0x02, 0x00, 0x00, 0x00,
  0x04, 0x00, 0x00, 0x00, 0x06, 0x00, 0x00, 0x00, 0x32, 0x2e, 0x31, 0x39,
  0x2e, 0x30, 0x00, 0x00, 0xaa, 0xfb, 0xff, 0xff, 0x04, 0x00, 0x00, 0x00,
  0x10, 0x00, 0x00, 0x00, 0x31, 0x2e, 0x35, 0x2e, 0x30, 0x00, 0x00, 0x00,
  0x00, 0x00, 0x00, 0x00, 0x00, 0x00, 0x00, 0x00, 0xc0, 0xf6, 0xff, 0xff,
  0xc4, 0xf6, 0xff, 0xff, 0xc8, 0xf6, 0xff, 0xff, 0xcc, 0xf6, 0xff, 0xff,
  0xd6, 0xfb, 0xff, 0xff, 0x04, 0x00, 0x00, 0x00, 0x80, 0x00, 0x00, 0x00,
  0x4e, 0x5c, 0xf0, 0xbd, 0x71, 0x62, 0x02, 0xbf, 0x6f, 0x0f, 0x2e, 0xbf,
  0x80, 0x5b, 0x2c, 0xbe, 0x06, 0x16, 0x3c, 0x3f, 0x5d, 0x16, 0xed, 0xbe,
  0xab, 0x02, 0x22, 0x3e, 0x4f, 0x75, 0x1b, 0xbf, 0x6d, 0xc6, 0xe2, 0xbe,
  0xfa, 0xcf, 0x7f, 0x3d, 0xd5, 0x78, 0x43, 0x3f, 0x9e, 0x8a, 0xa4, 0xbd,
  0x5f, 0x82, 0xe5, 0x3c, 0x12, 0x04, 0x65, 0xbe, 0x98, 0x5b, 0x7f, 0xbe,
  0x85, 0xfb, 0x99, 0x3e, 0xc1, 0x8e, 0xa2, 0x3e, 0xfb, 0xc0, 0x2f, 0xbf,
  0xd8, 0xcf, 0xac, 0x3e, 0x8b, 0x71, 0x35, 0x3f, 0x10, 0x08, 0x0d, 0xbf,
  0x08, 0x92, 0x03, 0x3e, 0x49, 0xd9, 0xaa, 0xbe, 0x3f, 0xf1, 0x02, 0xbd,
  0xe4, 0xfc, 0xf2, 0xbe, 0xb0, 0x57, 0xb5, 0xbe, 0x36, 0xb7, 0x43, 0x3e,
  0xff, 0x1b, 0xd6, 0x3e, 0x4f, 0x7b, 0x16, 0x3f, 0x16, 0xe8, 0x11, 0x3e,
  0x49, 0x52, 0x2d, 0x3f, 0x80, 0x34, 0xd0, 0x3e, 0x62, 0xfc, 0xff, 0xff,
  0x04, 0x00, 0x00, 0x00, 0x40, 0x00, 0x00, 0x00, 0xf7, 0x32, 0xce, 0xbd,
  0x59, 0xc9, 0x87, 0x3c, 0x5e, 0xeb, 0xde, 0xbc, 0x17, 0x65, 0xe4, 0xbd,
  0xb9, 0x86, 0xe2, 0xbd, 0xe6, 0x85, 0x98, 0x3d, 0x64, 0xf1, 0xf1, 0xbd,
  0xee, 0xc4, 0x95, 0xbd, 0xac, 0x66, 0x2e, 0xbe, 0x34, 0x60, 0xee, 0x3d,
  0x7c, 0xfa, 0x54, 0xbe, 0x6a, 0xc1, 0x4d, 0x3d, 0x38, 0x2b, 0xfa, 0x3d,
  0x37, 0x4c, 0xbb, 0xbd, 0x12, 0x19, 0x31, 0x3e, 0x41, 0x74, 0x12, 0x3e,
  0xae, 0xfc, 0xff, 0xff, 0x04, 0x00, 0x00, 0x00, 0x20, 0x00, 0x00, 0x00,
  0x12, 0xb9, 0xa9, 0xbd, 0x9d, 0x02, 0x02, 0x3e, 0x9c, 0x56, 0x18, 0xbe,
  0xd8, 0x2e, 0x6d, 0xbd, 0x9e, 0x89, 0xaf, 0x3d, 0x0a, 0xff, 0xfd, 0xbc,
  0x09, 0xa4, 0xe0, 0xbd, 0xd4, 0x82, 0x79, 0xbd, 0xda, 0xfc, 0xff, 0xff,
  0x04, 0x00, 0x00, 0x00, 0x0c, 0x00, 0x00, 0x00, 0xb5, 0xfb, 0x83, 0xbe,
  0x84, 0xc6, 0x06, 0x3e, 0x09, 0x19, 0x29, 0x3e, 0xf2, 0xfc, 0xff, 0xff,
  0x04, 0x00, 0x00, 0x00, 0x00, 0x02, 0x00, 0x00, 0x7f, 0xae, 0x3d, 0x3e,
  0x9d, 0xc5, 0x1d, 0x3f, 0xa6, 0x4e, 0xee, 0x3e, 0x77, 0x95, 0x10, 0x3f,
  0x7b, 0x0d, 0x23, 0x3f, 0x97, 0xf8, 0x9d, 0xbe, 0x92, 0x0d, 0x12, 0x3e,
  0x82, 0x75, 0xce, 0x3e, 0x6d, 0xa3, 0xc5, 0x3e, 0x9e, 0xc5, 0x3d, 0xbe,
  0xc3, 0x80, 0x24, 0x3f, 0xa6, 0x51, 0x1f, 0xbe, 0x1b, 0xa7, 0xf1, 0x3e,
  0xec, 0xfe, 0x0e, 0x3d, 0x4b, 0x72, 0xb9, 0xbe, 0x9e, 0x2f, 0x61, 0xbe,
  0x4b, 0x87, 0x83, 0x3b, 0x88, 0x40, 0xd9, 0xbe, 0xae, 0x83, 0x26, 0x3f,
  0x04, 0x7b, 0xe7, 0x3d, 0x95, 0x0f, 0xb9, 0x3e, 0x47, 0xa2, 0x0d, 0x3f,
  0xf9, 0x82, 0x4d, 0x3e, 0xdc, 0xc5, 0x83, 0x3c, 0x1f, 0xe9, 0xd6, 0xbd,
  0xdb, 0x37, 0x22, 0x3f, 0xac, 0xcc, 0x87, 0xbb, 0xa1, 0x3a, 0x18, 0xbe,
  0x5f, 0x8e, 0x25, 0xbd, 0xb6, 0x6e, 0x18, 0x3d, 0xae, 0xf1, 0x9d, 0xbb,
  0xe0, 0x13, 0x04, 0x3f, 0x5f, 0x98, 0x48, 0x3e, 0x4f, 0xe5, 0xde, 0x3e,
  0x83, 0xa3, 0x9e, 0x3e, 0x67, 0x44, 0x09, 0x3f, 0xc9, 0xf2, 0x8c, 0xbc,
  0xf7, 0x1f, 0x35, 0xbd, 0x4f, 0x53, 0x58, 0xbe, 0x27, 0x17, 0x48, 0x3e,
  0xf2, 0xa7, 0xf1, 0x3c, 0xc5, 0x25, 0x71, 0x3e, 0x69, 0xde, 0x8d, 0xbd,
  0x82, 0x07, 0xa4, 0xbe, 0xf5, 0x66, 0x2e, 0x3f, 0xc2, 0x68, 0xc1, 0x3c,
  0xea, 0xaf, 0x0c, 0xbf, 0x70, 0xaa, 0xf1, 0x3d, 0x61, 0x04, 0xf9, 0xbd,
  0xed, 0x8d, 0x8d, 0xbe, 0xc4, 0x59, 0x00, 0xbf, 0x05, 0xa5, 0xad, 0x3e,
  0x08, 0x61, 0xa0, 0x3e, 0x25, 0x7f, 0xa9, 0x3d, 0x61, 0x5f, 0x0d, 0x3e,
  0x08, 0xdf, 0x34, 0xbe, 0xcf, 0x75, 0xcf, 0x3e, 0x4e, 0xdc, 0x5a, 0x3e,
  0x88, 0x9c, 0x98, 0xbe, 0x49, 0x58, 0x38, 0xbe, 0x09, 0x27, 0x48, 0xbe,
  0x3a, 0x19, 0xb9, 0xbe, 0x20, 0xf0, 0xee, 0xbe, 0x3d, 0x44, 0x2e, 0x3e,
  0x58, 0x33, 0x09, 0xbe, 0x51, 0x57, 0xe3, 0xbe, 0x5d, 0x70, 0x55, 0xbe,
  0xe0, 0x92, 0x88, 0x3d, 0x92, 0xd2, 0xaa, 0x3e, 0x81, 0xfc, 0xad, 0xbe,
  0xf8, 0x1d, 0x1f, 0xbe, 0x17, 0xbd, 0xfd, 0x3e, 0x1b, 0xee, 0x1e, 0xbe,
  0x92, 0xc6, 0x85, 0x3e, 0x3d, 0x56, 0x9d, 0xbe, 0x9a, 0x16, 0xda, 0xbe,
  0x51, 0x31, 0x71, 0xbe, 0xda, 0xaf, 0x09, 0x3f, 0x08, 0xd8, 0xb9, 0xbe,
  0x20, 0x82, 0x41, 0x3e, 0x20, 0x8b, 0x75, 0xb9, 0x6b, 0x70, 0xc4, 0x3e,
  0x6a, 0xaa, 0xa4, 0x3e, 0x97, 0xa2, 0x1a, 0x3f, 0x4d, 0x6a, 0xa9, 0x3e,
  0xd7, 0x67, 0xad, 0x3e, 0xb0, 0x4d, 0x5a, 0x3d, 0x68, 0x18, 0xb3, 0x3e,
  0xd2, 0x52, 0x9c, 0x3e, 0xd8, 0x0b, 0x8a, 0xbe, 0x75, 0x9d, 0x1e, 0xbe,
  0xd5, 0x07, 0x30, 0x3e, 0x29, 0xba, 0xc5, 0x3e, 0xba, 0x00, 0x8e, 0xbe,
  0x9b, 0xbd, 0xf0, 0xbe, 0x19, 0xeb, 0xa8, 0xbd, 0x51, 0x41, 0x31, 0xbe,
  0x82, 0x94, 0xec, 0x3e, 0xff, 0xc7, 0xd1, 0x3e, 0xa5, 0xfc, 0xc0, 0xbe,
  0x5e, 0x64, 0x01, 0xbe, 0x8a, 0x8c, 0xa0, 0xbe, 0xef, 0x56, 0x84, 0x3e,
  0xd3, 0xc6, 0x37, 0x3f, 0xad, 0xdc, 0x8a, 0xbe, 0x7a, 0x2d, 0x2e, 0x3f,
  0xfc, 0x82, 0x09, 0x3f, 0xd1, 0xe9, 0xcd, 0xbd, 0x9d, 0x1b, 0x23, 0xbe,
  0x2f, 0x47, 0xe3, 0xbd, 0xcc, 0xee, 0xf0, 0xbe, 0x95, 0x2e, 0x02, 0x3e,
  0x18, 0xb1, 0x43, 0xbe, 0x9d, 0x95, 0xf9, 0xbe, 0x7a, 0x4b, 0x9a, 0xbd,
  0xb0, 0x83, 0x96, 0xbe, 0x4b, 0xf9, 0xf0, 0xbd, 0x8f, 0x5b, 0x05, 0xbf,
  0x24, 0xa5, 0x99, 0xbe, 0x75, 0x98, 0xb8, 0x3e, 0x96, 0xc8, 0xa7, 0x3e,
  0x8e, 0x63, 0x0b, 0xbe, 0x7c, 0x0d, 0xdd, 0x3e, 0x87, 0x93, 0x9f, 0xbe,
  0xc7, 0x87, 0xa4, 0x3d, 0x80, 0x88, 0xe3, 0xbc, 0xc2, 0xe9, 0x0d, 0x3e,
  0xbc, 0x22, 0x05, 0x3d, 0xfe, 0xfe, 0xff, 0xff, 0x04, 0x00, 0x00, 0x00,
  0x60, 0x00, 0x00, 0x00, 0xa1, 0x13, 0x49, 0x3f, 0x18, 0xae, 0x33, 0x3c,
  0x2e, 0x17, 0x28, 0x3f, 0xbe, 0x8d, 0x13, 0xbf, 0xa1, 0xb6, 0xad, 0xbe,
  0x0a, 0xcb, 0xe4, 0x3e, 0x75, 0x3f, 0x3f, 0xbe, 0x30, 0x19, 0x21, 0xbc,
  0xc4, 0xad, 0xd8, 0xbd, 0x54, 0x40, 0x1e, 0xbf, 0x83, 0xdc, 0x44, 0x3e,
  0x59, 0x35, 0x04, 0xbf, 0xc1, 0x28, 0x36, 0xbe, 0x14, 0xcd, 0xa2, 0xbd,
  0x04, 0xcf, 0x68, 0xbf, 0x74, 0x5e, 0x27, 0x3f, 0x12, 0x94, 0xcd, 0xbe,
  0x15, 0xdc, 0x6b, 0x3f, 0x8f, 0x8b, 0x02, 0xbf, 0x1a, 0xc3, 0x7c, 0xbe,
  0xcc, 0xd6, 0x9e, 0xbd, 0x9d, 0x77, 0x4d, 0xbf, 0xb4, 0xea, 0x31, 0xbe,
  0x1a, 0x4e, 0x25, 0xbd, 0x64, 0xfa, 0xff, 0xff, 0x68, 0xfa, 0xff, 0xff,
  0x0f, 0x00, 0x00, 0x00, 0x4d, 0x4c, 0x49, 0x52, 0x20, 0x43, 0x6f, 0x6e,
  0x76, 0x65, 0x72, 0x74, 0x65, 0x64, 0x2e, 0x00, 0x01, 0x00, 0x00, 0x00,
  0x14, 0x00, 0x00, 0x00, 0x00, 0x00, 0x0e, 0x00, 0x18, 0x00, 0x14, 0x00,
  0x10, 0x00, 0x0c, 0x00, 0x08, 0x00, 0x04, 0x00, 0x0e, 0x00, 0x00, 0x00,
  0x14, 0x00, 0x00, 0x00, 0x1c, 0x00, 0x00, 0x00, 0x24, 0x01, 0x00, 0x00,
  0x28, 0x01, 0x00, 0x00, 0x2c, 0x01, 0x00, 0x00, 0x04, 0x00, 0x00, 0x00,
  0x6d, 0x61, 0x69, 0x6e, 0x00, 0x00, 0x00, 0x00, 0x04, 0x00, 0x00, 0x00,
  0xcc, 0x00, 0x00, 0x00, 0x84, 0x00, 0x00, 0x00, 0x50, 0x00, 0x00, 0x00,
  0x14, 0x00, 0x00, 0x00, 0x00, 0x00, 0x0e, 0x00, 0x1a, 0x00, 0x14, 0x00,
  0x10, 0x00, 0x0c, 0x00, 0x0b, 0x00, 0x04, 0x00, 0x0e, 0x00, 0x00, 0x00,
  0x1c, 0x00, 0x00, 0x00, 0x00, 0x00, 0x00, 0x09, 0x1c, 0x00, 0x00, 0x00,
  0x20, 0x00, 0x00, 0x00, 0x01, 0x00, 0x00, 0x00, 0x00, 0x00, 0x06, 0x00,
  0x08, 0x00, 0x04, 0x00, 0x06, 0x00, 0x00, 0x00, 0x00, 0x00, 0x80, 0x3f,
  0x01, 0x00, 0x00, 0x00, 0x0a, 0x00, 0x00, 0x00, 0x01, 0x00, 0x00, 0x00,
  0x09, 0x00, 0x00, 0x00, 0x9a, 0xff, 0xff, 0xff, 0x10, 0x00, 0x00, 0x00,
  0x00, 0x00, 0x00, 0x08, 0x0c, 0x00, 0x00, 0x00, 0x10, 0x00, 0x00, 0x00,
  0x2c, 0xfb, 0xff, 0xff, 0x01, 0x00, 0x00, 0x00, 0x09, 0x00, 0x00, 0x00,
  0x03, 0x00, 0x00, 0x00, 0x08, 0x00, 0x00, 0x00, 0x01, 0x00, 0x00, 0x00,
  0x03, 0x00, 0x00, 0x00, 0xca, 0xff, 0xff, 0xff, 0x10, 0x00, 0x00, 0x00,
  0x00, 0x00, 0x00, 0x08, 0x10, 0x00, 0x00, 0x00, 0x14, 0x00, 0x00, 0x00,
  0xba, 0xff, 0xff, 0xff, 0x00, 0x00, 0x00, 0x01, 0x01, 0x00, 0x00, 0x00,
  0x08, 0x00, 0x00, 0x00, 0x03, 0x00, 0x00, 0x00, 0x07, 0x00, 0x00, 0x00,
  0x02, 0x00, 0x00, 0x00, 0x04, 0x00, 0x00, 0x00, 0x00, 0x00, 0x0e, 0x00,
  0x16, 0x00, 0x00, 0x00, 0x10, 0x00, 0x0c, 0x00, 0x0b, 0x00, 0x04, 0x00,
  0x0e, 0x00, 0x00, 0x00, 0x18, 0x00, 0x00, 0x00, 0x00, 0x00, 0x00, 0x08,
  0x18, 0x00, 0x00, 0x00, 0x1c, 0x00, 0x00, 0x00, 0x00, 0x00, 0x06, 0x00,
  0x08, 0x00, 0x07, 0x00, 0x06, 0x00, 0x00, 0x00, 0x00, 0x00, 0x00, 0x01,
  0x01, 0x00, 0x00, 0x00, 0x07, 0x00, 0x00, 0x00, 0x03, 0x00, 0x00, 0x00,
  0x00, 0x00, 0x00, 0x00, 0x06, 0x00, 0x00, 0x00, 0x05, 0x00, 0x00, 0x00,
  0x01, 0x00, 0x00, 0x00, 0x0a, 0x00, 0x00, 0x00, 0x01, 0x00, 0x00, 0x00,
  0x00, 0x00, 0x00, 0x00, 0x0b, 0x00, 0x00, 0x00, 0xfc, 0x03, 0x00, 0x00,
  0xa4, 0x03, 0x00, 0x00, 0x4c, 0x03, 0x00, 0x00, 0x10, 0x03, 0x00, 0x00,
  0xb4, 0x02, 0x00, 0x00, 0x5c, 0x02, 0x00, 0x00, 0x10, 0x02, 0x00, 0x00,
  0x7c, 0x01, 0x00, 0x00, 0xe0, 0x00, 0x00, 0x00, 0x60, 0x00, 0x00, 0x00,
  0x04, 0x00, 0x00, 0x00, 0x46, 0xfc, 0xff, 0xff, 0x00, 0x00, 0x00, 0x01,
  0x14, 0x00, 0x00, 0x00, 0x1c, 0x00, 0x00, 0x00, 0x1c, 0x00, 0x00, 0x00,
  0x0b, 0x00, 0x00, 0x00, 0x34, 0x00, 0x00, 0x00, 0x02, 0x00, 0x00, 0x00,
  0xff, 0xff, 0xff, 0xff, 0x03, 0x00, 0x00, 0x00, 0x30, 0xfc, 0xff, 0xff,
  0x1b, 0x00, 0x00, 0x00, 0x53, 0x74, 0x61, 0x74, 0x65, 0x66, 0x75, 0x6c,
  0x50, 0x61, 0x72, 0x74, 0x69, 0x74, 0x69, 0x6f, 0x6e, 0x65, 0x64, 0x43,
  0x61, 0x6c, 0x6c, 0x5f, 0x31, 0x3a, 0x30, 0x00, 0x02, 0x00, 0x00, 0x00,
  0x01, 0x00, 0x00, 0x00, 0x03, 0x00, 0x00, 0x00, 0x9e, 0xfc, 0xff, 0xff,
  0x00, 0x00, 0x00, 0x01, 0x14, 0x00, 0x00, 0x00, 0x1c, 0x00, 0x00, 0x00,
  0x1c, 0x00, 0x00, 0x00, 0x0a, 0x00, 0x00, 0x00, 0x58, 0x00, 0x00, 0x00,
  0x02, 0x00, 0x00, 0x00, 0xff, 0xff, 0xff, 0xff, 0x03, 0x00, 0x00, 0x00,
  0x88, 0xfc, 0xff, 0xff, 0x3c, 0x00, 0x00, 0x00, 0x73, 0x65, 0x71, 0x75,
  0x65, 0x6e, 0x74, 0x69, 0x61, 0x6c, 0x5f, 0x31, 0x2f, 0x64, 0x65, 0x6e,
  0x73, 0x65, 0x5f, 0x32, 0x5f, 0x31, 0x2f, 0x4d, 0x61, 0x74, 0x4d, 0x75,
  0x6c, 0x3b, 0x73, 0x65, 0x71, 0x75, 0x65, 0x6e, 0x74, 0x69, 0x61, 0x6c,
  0x5f, 0x31, 0x2f, 0x64, 0x65, 0x6e, 0x73, 0x65, 0x5f, 0x32, 0x5f, 0x31,
  0x2f, 0x42, 0x69, 0x61, 0x73, 0x41, 0x64, 0x64, 0x00, 0x00, 0x00, 0x00,
  0x02, 0x00, 0x00, 0x00, 0x01, 0x00, 0x00, 0x00, 0x03, 0x00, 0x00, 0x00,
  0x1a, 0xfd, 0xff, 0xff, 0x00, 0x00, 0x00, 0x01, 0x14, 0x00, 0x00, 0x00,
  0x1c, 0x00, 0x00, 0x00, 0x1c, 0x00, 0x00, 0x00, 0x09, 0x00, 0x00, 0x00,
  0x74, 0x00, 0x00, 0x00, 0x02, 0x00, 0x00, 0x00, 0xff, 0xff, 0xff, 0xff,
  0x08, 0x00, 0x00, 0x00, 0x04, 0xfd, 0xff, 0xff, 0x58, 0x00, 0x00, 0x00,
  0x73, 0x65, 0x71, 0x75, 0x65, 0x6e, 0x74, 0x69, 0x61, 0x6c, 0x5f, 0x31,
  0x2f, 0x64, 0x65, 0x6e, 0x73, 0x65, 0x5f, 0x31, 0x5f, 0x32, 0x2f, 0x4d,
  0x61, 0x74, 0x4d, 0x75, 0x6c, 0x3b, 0x73, 0x65, 0x71, 0x75, 0x65, 0x6e,
  0x74, 0x69, 0x61, 0x6c, 0x5f, 0x31, 0x2f, 0x64, 0x65, 0x6e, 0x73, 0x65,
  0x5f, 0x31, 0x5f, 0x32, 0x2f, 0x52, 0x65, 0x6c, 0x75, 0x3b, 0x73, 0x65,
  0x71, 0x75, 0x65, 0x6e, 0x74, 0x69, 0x61, 0x6c, 0x5f, 0x31, 0x2f, 0x64,
  0x65, 0x6e, 0x73, 0x65, 0x5f, 0x31, 0x5f, 0x32, 0x2f, 0x42, 0x69, 0x61,
  0x73, 0x41, 0x64, 0x64, 0x00, 0x00, 0x00, 0x00, 0x02, 0x00, 0x00, 0x00,
  0x01, 0x00, 0x00, 0x00, 0x08, 0x00, 0x00, 0x00, 0xb2, 0xfd, 0xff, 0xff,
  0x00, 0x00, 0x00, 0x01, 0x14, 0x00, 0x00, 0x00, 0x1c, 0x00, 0x00, 0x00,
  0x1c, 0x00, 0x00, 0x00, 0x08, 0x00, 0x00, 0x00, 0x6c, 0x00, 0x00, 0x00,
  0x02, 0x00, 0x00, 0x00, 0xff, 0xff, 0xff, 0xff, 0x10, 0x00, 0x00, 0x00,
  0x9c, 0xfd, 0xff, 0xff, 0x52, 0x00, 0x00, 0x00, 0x73, 0x65, 0x71, 0x75,
  0x65, 0x6e, 0x74, 0x69, 0x61, 0x6c, 0x5f, 0x31, 0x2f, 0x64, 0x65, 0x6e,
  0x73, 0x65, 0x5f, 0x31, 0x2f, 0x4d, 0x61, 0x74, 0x4d, 0x75, 0x6c, 0x3b,
  0x73, 0x65, 0x71, 0x75, 0x65, 0x6e, 0x74, 0x69, 0x61, 0x6c, 0x5f, 0x31,
  0x2f, 0x64, 0x65, 0x6e, 0x73, 0x65, 0x5f, 0x31, 0x2f, 0x52, 0x65, 0x6c,
  0x75, 0x3b, 0x73, 0x65, 0x71, 0x75, 0x65, 0x6e, 0x74, 0x69, 0x61, 0x6c,
  0x5f, 0x31, 0x2f, 0x64, 0x65, 0x6e, 0x73, 0x65, 0x5f, 0x31, 0x2f, 0x42,
  0x69, 0x61, 0x73, 0x41, 0x64, 0x64, 0x00, 0x00, 0x02, 0x00, 0x00, 0x00,
  0x01, 0x00, 0x00, 0x00, 0x10, 0x00, 0x00, 0x00, 0x96, 0xfe, 0xff, 0xff,
  0x00, 0x00, 0x00, 0x01, 0x10, 0x00, 0x00, 0x00, 0x10, 0x00, 0x00, 0x00,
  0x07, 0x00, 0x00, 0x00, 0x28, 0x00, 0x00, 0x00, 0x1c, 0xfe, 0xff, 0xff,
  0x1b, 0x00, 0x00, 0x00, 0x73, 0x65, 0x71, 0x75, 0x65, 0x6e, 0x74, 0x69,
  0x61, 0x6c, 0x5f, 0x31, 0x2f, 0x64, 0x65, 0x6e, 0x73, 0x65, 0x5f, 0x31,
  0x2f, 0x4d, 0x61, 0x74, 0x4d, 0x75, 0x6c, 0x00, 0x02, 0x00, 0x00, 0x00,
  0x10, 0x00, 0x00, 0x00, 0x02, 0x00, 0x00, 0x00, 0xde, 0xfe, 0xff, 0xff,
  0x00, 0x00, 0x00, 0x01, 0x10, 0x00, 0x00, 0x00, 0x10, 0x00, 0x00, 0x00,
  0x06, 0x00, 0x00, 0x00, 0x38, 0x00, 0x00, 0x00, 0x64, 0xfe, 0xff, 0xff,
  0x2b, 0x00, 0x00, 0x00, 0x73, 0x65, 0x71, 0x75, 0x65, 0x6e, 0x74, 0x69,
  0x61, 0x6c, 0x5f, 0x31, 0x2f, 0x64, 0x65, 0x6e, 0x73, 0x65, 0x5f, 0x31,
  0x2f, 0x42, 0x69, 0x61, 0x73, 0x41, 0x64, 0x64, 0x2f, 0x52, 0x65, 0x61,
  0x64, 0x56, 0x61, 0x72, 0x69, 0x61, 0x62, 0x6c, 0x65, 0x4f, 0x70, 0x00,
  0x01, 0x00, 0x00, 0x00, 0x10, 0x00, 0x00, 0x00, 0x32, 0xff, 0xff, 0xff,
  0x00, 0x00, 0x00, 0x01, 0x10, 0x00, 0x00, 0x00, 0x10, 0x00, 0x00, 0x00,
  0x05, 0x00, 0x00, 0x00, 0x3c, 0x00, 0x00, 0x00, 0xb8, 0xfe, 0xff, 0xff,
  0x2d, 0x00, 0x00, 0x00, 0x73, 0x65, 0x71, 0x75, 0x65, 0x6e, 0x74, 0x69,
  0x61, 0x6c, 0x5f, 0x31, 0x2f, 0x64, 0x65, 0x6e, 0x73, 0x65, 0x5f, 0x31,
  0x5f, 0x32, 0x2f, 0x42, 0x69, 0x61, 0x73, 0x41, 0x64, 0x64, 0x2f, 0x52,
  0x65, 0x61, 0x64, 0x56, 0x61, 0x72, 0x69, 0x61, 0x62, 0x6c, 0x65, 0x4f,
  0x70, 0x00, 0x00, 0x00, 0x01, 0x00, 0x00, 0x00, 0x08, 0x00, 0x00, 0x00,
  0x8a, 0xff, 0xff, 0xff, 0x00, 0x00, 0x00, 0x01, 0x10, 0x00, 0x00, 0x00,
  0x10, 0x00, 0x00, 0x00, 0x04, 0x00, 0x00, 0x00, 0x1c, 0x00, 0x00, 0x00,
  0x10, 0xff, 0xff, 0xff, 0x0f, 0x00, 0x00, 0x00, 0x61, 0x72, 0x69, 0x74,
  0x68, 0x2e, 0x63, 0x6f, 0x6e, 0x73, 0x74, 0x61, 0x6e, 0x74, 0x32, 0x00,
  0x01, 0x00, 0x00, 0x00, 0x03, 0x00, 0x00, 0x00, 0xc2, 0xff, 0xff, 0xff,
  0x00, 0x00, 0x00, 0x01, 0x10, 0x00, 0x00, 0x00, 0x10, 0x00, 0x00, 0x00,
  0x03, 0x00, 0x00, 0x00, 0x1c, 0x00, 0x00, 0x00, 0x48, 0xff, 0xff, 0xff,
  0x0f, 0x00, 0x00, 0x00, 0x61, 0x72, 0x69, 0x74, 0x68, 0x2e, 0x63, 0x6f,
  0x6e, 0x73, 0x74, 0x61, 0x6e, 0x74, 0x31, 0x00, 0x02, 0x00, 0x00, 0x00,
  0x08, 0x00, 0x00, 0x00, 0x10, 0x00, 0x00, 0x00, 0x00, 0x00, 0x16, 0x00,
  0x18, 0x00, 0x14, 0x00, 0x00, 0x00, 0x10, 0x00, 0x0c, 0x00, 0x08, 0x00,
  0x00, 0x00, 0x00, 0x00, 0x00, 0x00, 0x07, 0x00, 0x16, 0x00, 0x00, 0x00,
  0x00, 0x00, 0x00, 0x01, 0x10, 0x00, 0x00, 0x00, 0x10, 0x00, 0x00, 0x00,
  0x02, 0x00, 0x00, 0x00, 0x1c, 0x00, 0x00, 0x00, 0x9c, 0xff, 0xff, 0xff,
  0x0e, 0x00, 0x00, 0x00, 0x61, 0x72, 0x69, 0x74, 0x68, 0x2e, 0x63, 0x6f,
  0x6e, 0x73, 0x74, 0x61, 0x6e, 0x74, 0x00, 0x00, 0x02, 0x00, 0x00, 0x00,
  0x03, 0x00, 0x00, 0x00, 0x08, 0x00, 0x00, 0x00, 0x00, 0x00, 0x16, 0x00,
  0x1c, 0x00, 0x18, 0x00, 0x00, 0x00, 0x14, 0x00, 0x10, 0x00, 0x0c, 0x00,
  0x00, 0x00, 0x00, 0x00, 0x08, 0x00, 0x07, 0x00, 0x16, 0x00, 0x00, 0x00,
  0x00, 0x00, 0x00, 0x01, 0x14, 0x00, 0x00, 0x00, 0x20, 0x00, 0x00, 0x00,
  0x20, 0x00, 0x00, 0x00, 0x01, 0x00, 0x00, 0x00, 0x3c, 0x00, 0x00, 0x00,
  0x02, 0x00, 0x00, 0x00, 0xff, 0xff, 0xff, 0xff, 0x02, 0x00, 0x00, 0x00,
  0x04, 0x00, 0x04, 0x00, 0x04, 0x00, 0x00, 0x00, 0x1e, 0x00, 0x00, 0x00,
  0x73, 0x65, 0x72, 0x76, 0x69, 0x6e, 0x67, 0x5f, 0x64, 0x65, 0x66, 0x61,
  0x75, 0x6c, 0x74, 0x5f, 0x6b, 0x65, 0x72, 0x61, 0x73, 0x5f, 0x74, 0x65,
  0x6e, 0x73, 0x6f, 0x72, 0x3a, 0x30, 0x00, 0x00, 0x02, 0x00, 0x00, 0x00,
  0x01, 0x00, 0x00, 0x00, 0x02, 0x00, 0x00, 0x00, 0x02, 0x00, 0x00, 0x00,
  0x20, 0x00, 0x00, 0x00, 0x04, 0x00, 0x00, 0x00, 0xf4, 0xff, 0xff, 0xff,
  0x19, 0x00, 0x00, 0x00, 0x00, 0x00, 0x00, 0x19, 0x0c, 0x00, 0x0c, 0x00,
  0x0b, 0x00, 0x00, 0x00, 0x00, 0x00, 0x04, 0x00, 0x0c, 0x00, 0x00, 0x00,
  0x09, 0x00, 0x00, 0x00, 0x00, 0x00, 0x00, 0x09,
};
const unsigned int model_tflite_len = 2948;
